0.003486
0.030969
0.069424
0.059175
-0.036557
0.182156
0.073819
-0.008458
0.044580
0.091093
-0.138629
0.057248
0.161052
-0.016199
0.040160
0.058231
-0.042456
0.042093
0.037066
0.106612
-0.025676
0.074939
0.043783
-0.036275
0.048766
0.195229
0.040546
0.031592
0.137156
0.072077
0.019284
0.008868
0.117017
0.162154
0.042154
0.025833
0.004521
0.184092
0.059403
0.076658
0.038068
-0.018715
0.002448
0.240822
-0.041739
0.035820
-0.042775
0.069920
0.106331
-0.020229
0.160142
0.190570
-0.029731
-0.028560
0.038397
0.126116
-0.163832
0.057908
0.106694
0.012961
0.150745
-0.184247
-0.051873
0.040844
0.039621
0.210331
0.047375
0.008697
0.018626
0.076468
0.058337
0.099011
-0.050007
-0.002588
-0.014435
0.114631
0.100174
0.220630
0.021016
-0.011099
-0.002009
0.029218
-0.060193
0.241475
0.084415
0.078646
0.000827
0.077702
0.211120
0.107051
-0.018161
0.117953
-0.047703
0.082227
0.140324
0.035165
0.016131
-0.065033
0.052345
-0.063373
-0.045429
0.028085
0.069800
0.048087
-0.041282
0.075604
0.075589
-0.023877
0.075915
0.182402
0.014654
-0.044742
0.153943
0.057572
0.177479
-0.039007
-0.078211
0.006142
-0.070935
0.046251
0.025389
0.051142
-0.056272
-0.000569
-0.064148
0.025833
0.009475
0.131444
0.000474
0.039041
-0.019899
-0.022845
0.061841
-0.095635
-0.003616
-0.142359
-0.098993
0.051498
0.021106
0.099929
0.051227
-0.005839
0.026656
0.094558
-0.022495
-0.069883
0.041331
0.013429
0.021144
-0.021012
-0.022396
0.021956
0.129849
0.123970
0.074859
0.096657
0.077335
0.125650
-0.059456
0.061124
0.052284
0.011450
-0.053024
0.044949
0.046299
0.039218
0.035384
0.013232
0.143646
0.119616
0.019509
-0.015924
-0.166008
-0.076315
-0.119388
0.009466
0.080348
-0.092097
-0.017520
-0.044060
-0.101160
0.114052
0.120071
0.001102
0.065613
0.102103
0.029776
0.060371
-0.021114
0.021568
-0.016227
0.113141
0.052096
-0.060462
-0.009936
0.132325
-0.006851
-0.038335
0.040730
-0.018337
-0.037220
-0.000216
0.024492
-0.035381
-0.044500
-0.155766
-0.052999
0.107879
-0.096882
0.044114
0.007397
0.001693
0.074376
0.027661
0.107274
-0.018387
0.015599
0.013011
0.026218
0.074594
-0.151706
-0.060869
0.093129
0.017229
-0.107095
0.055342
0.036062
-0.073819
-0.011330
0.060137
0.101670
-0.151404
-0.004742
-0.018890
0.045131
0.050215
0.020115
-0.012628
0.003035
0.008454
-0.109257
0.082671
0.068164
-0.020494
0.118402
-0.018780
0.187728
0.117054
-0.012611
0.108011
-0.137116
0.178401
0.087701
-0.014147
-0.012879
0.011728
0.027913
0.016844
0.029316
0.010798
0.121978
0.022183
-0.038795
-0.052664
-0.038962
0.064003
0.178293
-0.035618
0.036216
-0.047872
0.039718
0.085172
0.051225
0.006123
-0.011565
0.038299
0.037324
-0.081830
-0.040016
0.188361
0.125216
0.126886
-0.053792
0.052949
-0.079262
0.027285
-0.101592
-0.011473
0.022941
-0.088325
0.102744
0.006999
0.044908
0.017365
-0.009779
0.075173
-0.039947
0.042350
-0.005082
0.081310
0.040697
-0.038793
0.025084
0.062974
0.004117
0.007784
0.047872
-0.047538
0.136941
-0.010046
-0.099815
-0.010300
0.000343
-0.004989
-0.007634
0.039724
0.001118
-0.077511
0.013802
0.021991
0.026362
0.000411
-0.037752
-0.099749
-0.050647
0.201804
0.145586
-0.103239
0.039076
0.060977
0.083996
0.038957
0.046926
-0.001315
0.115650
0.046547
-0.013453
0.041005
0.052833
-0.010954
0.016633
-0.004229
0.035748
0.053258
0.023415
-0.021732
0.053477
-0.015918
0.104151
-0.045698
0.039600
-0.164262
0.145670
-0.019062
0.025138
0.071114
0.082277
-0.058115
-0.006390
-0.064959
-0.033454
-0.046067
0.082556
0.156311
0.147264
-0.041201
-0.076614
0.047971
0.032866
0.077690
0.069581
0.106962
-0.021274
-0.074579
0.001971
0.011126
0.162901
-0.047915
0.047627
-0.014711
0.058346
0.023852
0.034765
-0.070427
-0.046652
0.077431
0.053543
0.082165
-0.067669
0.099238
0.110184
0.001181
-0.003839
0.083358
0.093662
0.070330
-0.016055
-0.007679
-0.006649
0.071395
0.023651
-0.096963
-0.026511
-0.001524
0.055050
0.019209
-0.058365
0.132926
0.025814
-0.044193
0.040585
0.049811
0.171336
0.175003
0.073066
0.055584
0.096547
0.069099
0.007110
-0.085156
0.043650
0.089332
0.054405
0.090982
0.040845
0.073654
-0.088131
0.127886
0.154539
-0.022279
0.003265
-0.015986
-0.029104
-0.021984
-0.020229
0.109039
0.086854
-0.001408
0.002832
0.116080
0.121906
0.129968
-0.021119
0.076787
0.032670
0.006617
-0.013320
0.030458
0.044933
0.212198
-0.056634
0.039316
0.087297
0.220440
0.100834
-0.024797
0.068609
-0.046244
0.300405
0.011856
-0.045040
-0.034292
-0.038782
0.007732
0.027916
-0.033654
0.026603
0.013961
0.071387
0.019928
0.022317
0.212279
0.140565
0.104972
0.156648
0.090925
0.131372
0.021852
0.038378
0.131891
-0.032795
0.078493
0.285066
0.081656
-0.042942
0.145127
-0.040302
0.026950
0.012534
-0.086370
-0.063807
0.013233
0.011410
-0.015262
0.001239
0.055441
0.181054
0.238436
0.065906
0.082923
